#ifndef MODEL_DATA_H
#define MODEL_DATA_H
#include <stddef.h>
#include <stdint.h>
alignas(4) const unsigned char crack_model_tflite[] = {
  0x1c, 0x00, 0x00, 0x00, 0x54, 0x46, 0x4c, 0x33, 0x14, 0x00, 0x20, 0x00,
  0x1c, 0x00, 0x18, 0x00, 0x14, 0x00, 0x10, 0x00, 0x0c, 0x00, 0x00, 0x00,
  0x08, 0x00, 0x04, 0x00, 0x14, 0x00, 0x00, 0x00, 0x1c, 0x00, 0x00, 0x00,
  0x98, 0x00, 0x00, 0x00, 0xf0, 0x00, 0x00, 0x00, 0xfc, 0x06, 0x00, 0x00,
  0x0c, 0x07, 0x00, 0x00, 0x5c, 0x0b, 0x00, 0x00, 0x03, 0x00, 0x00, 0x00,
  0x01, 0x00, 0x00, 0x00, 0x10, 0x00, 0x00, 0x00, 0x00, 0x00, 0x0a, 0x00,
  0x10, 0x00, 0x0c, 0x00, 0x08, 0x00, 0x04, 0x00, 0x0a, 0x00, 0x00, 0x00,
  0x0c, 0x00, 0x00, 0x00, 0x1c, 0x00, 0x00, 0x00, 0x3c, 0x00, 0x00, 0x00,
  0x0f, 0x00, 0x00, 0x00, 0x73, 0x65, 0x72, 0x76, 0x69, 0x6e, 0x67, 0x5f,
  0x64, 0x65, 0x66, 0x61, 0x75, 0x6c, 0x74, 0x00, 0x01, 0x00, 0x00, 0x00,
  0x04, 0x00, 0x00, 0x00, 0x90, 0xff, 0xff, 0xff, 0x07, 0x00, 0x00, 0x00,
  0x04, 0x00, 0x00, 0x00, 0x08, 0x00, 0x00, 0x00, 0x6f, 0x75, 0x74, 0x70,
  0x75, 0x74, 0x5f, 0x30, 0x00, 0x00, 0x00, 0x00, 0x01, 0x00, 0x00, 0x00,
  0x04, 0x00, 0x00, 0x00, 0xee, 0xf8, 0xff, 0xff, 0x04, 0x00, 0x00, 0x00,
  0x0c, 0x00, 0x00, 0x00, 0x6b, 0x65, 0x72, 0x61, 0x73, 0x5f, 0x74, 0x65,
  0x6e, 0x73, 0x6f, 0x72, 0x00, 0x00, 0x00, 0x00, 0x02, 0x00, 0x00, 0x00,
  0x34, 0x00, 0x00, 0x00, 0x04, 0x00, 0x00, 0x00, 0xdc, 0xff, 0xff, 0xff,
  0x0a, 0x00, 0x00, 0x00, 0x04, 0x00, 0x00, 0x00, 0x13, 0x00, 0x00, 0x00,
  0x43, 0x4f, 0x4e, 0x56, 0x45, 0x52, 0x53, 0x49, 0x4f, 0x4e, 0x5f, 0x4d,
  0x45, 0x54, 0x41, 0x44, 0x41, 0x54, 0x41, 0x00, 0x08, 0x00, 0x0c, 0x00,
  0x08, 0x00, 0x04, 0x00, 0x08, 0x00, 0x00, 0x00, 0x09, 0x00, 0x00, 0x00,
  0x04, 0x00, 0x00, 0x00, 0x13, 0x00, 0x00, 0x00, 0x6d, 0x69, 0x6e, 0x5f,
  0x72, 0x75, 0x6e, 0x74, 0x69, 0x6d, 0x65, 0x5f, 0x76, 0x65, 0x72, 0x73,
  0x69, 0x6f, 0x6e, 0x00, 0x0b, 0x00, 0x00, 0x00, 0x08, 0x06, 0x00, 0x00,
  0x00, 0x06, 0x00, 0x00, 0xe4, 0x05, 0x00, 0x00, 0xd4, 0x02, 0x00, 0x00,
  0xc4, 0x01, 0x00, 0x00, 0xb4, 0x00, 0x00, 0x00, 0xac, 0x00, 0x00, 0x00,
  0xa4, 0x00, 0x00, 0x00, 0x9c, 0x00, 0x00, 0x00, 0x7c, 0x00, 0x00, 0x00,
  0x04, 0x00, 0x00, 0x00, 0x96, 0xf9, 0xff, 0xff, 0x04, 0x00, 0x00, 0x00,
  0x68, 0x00, 0x00, 0x00, 0x0c, 0x00, 0x00, 0x00, 0x08, 0x00, 0x0e, 0x00,
  0x08, 0x00, 0x04, 0x00, 0x08, 0x00, 0x00, 0x00, 0x10, 0x00, 0x00, 0x00,
  0x28, 0x00, 0x00, 0x00, 0x00, 0x00, 0x06, 0x00, 0x08, 0x00, 0x04, 0x00,
  0x06, 0x00, 0x00, 0x00, 0x04, 0x00, 0x00, 0x00, 0x01, 0x00, 0x00, 0x00,
  0xea, 0x03, 0x00, 0x00, 0x0c, 0x00, 0x1c, 0x00, 0x18, 0x00, 0x14, 0x00,
  0x10, 0x00, 0x04, 0x00, 0x0c, 0x00, 0x00, 0x00, 0x4a, 0x01, 0x56, 0xb1,
  0xb0, 0xbc, 0x66, 0x4f, 0x00, 0x00, 0x00, 0x00, 0x02, 0x00, 0x00, 0x00,
  0x02, 0x00, 0x00, 0x00, 0x04, 0x00, 0x00, 0x00, 0x0a, 0x00, 0x00, 0x00,
  0x32, 0x2e, 0x32, 0x30, 0x2e, 0x30, 0x2d, 0x72, 0x63, 0x30, 0x00, 0x00,
  0x0a, 0xfa, 0xff, 0xff, 0x04, 0x00, 0x00, 0x00, 0x10, 0x00, 0x00, 0x00,
  0x31, 0x2e, 0x35, 0x2e, 0x30, 0x00, 0x00, 0x00, 0x00, 0x00, 0x00, 0x00,
  0x00, 0x00, 0x00, 0x00, 0x80, 0xf6, 0xff, 0xff, 0x84, 0xf6, 0xff, 0xff,
  0x88, 0xf6, 0xff, 0xff, 0x32, 0xfa, 0xff, 0xff, 0x04, 0x00, 0x00, 0x00,
  0x00, 0x01, 0x00, 0x00, 0x00, 0x00, 0x00, 0x00, 0x22, 0x5d, 0x90, 0x3f,
  0x00, 0x00, 0x00, 0x00, 0x00, 0x00, 0x00, 0x00, 0x00, 0x00, 0x00, 0x00,
  0x9b, 0x00, 0x8b, 0x3f, 0xc6, 0x01, 0x2e, 0xbf, 0xd4, 0x38, 0x75, 0x3f,
  0x19, 0xd8, 0x08, 0xbf, 0x00, 0x00, 0x00, 0x00, 0x00, 0x00, 0x00, 0x00,
  0x32, 0x68, 0x98, 0x3f, 0x00, 0x00, 0x00, 0x00, 0x00, 0x00, 0x00, 0x00,
  0x00, 0x00, 0x00, 0x00, 0x00, 0x00, 0x00, 0x00, 0x00, 0x00, 0x00, 0x00,
  0x00, 0x00, 0x00, 0x00, 0x5d, 0x32, 0x96, 0x3f, 0x54, 0x04, 0x25, 0xbc,
  0x00, 0x00, 0x00, 0x00, 0x55, 0x8d, 0x3d, 0xbf, 0x00, 0x00, 0x00, 0x00,
  0x00, 0x00, 0x00, 0x00, 0x00, 0x00, 0x00, 0x00, 0x00, 0x00, 0x00, 0x00,
  0x00, 0x00, 0x00, 0x00, 0x00, 0x00, 0x00, 0x00, 0x66, 0x0e, 0x53, 0xbf,
  0x00, 0x00, 0x00, 0x00, 0x00, 0x00, 0x00, 0x00, 0x00, 0x00, 0x00, 0x00,
  0x50, 0x03, 0x4f, 0xbf, 0x05, 0x39, 0x45, 0xbf, 0x00, 0x00, 0x00, 0x00,
  0x4b, 0x76, 0x9a, 0x3f, 0x00, 0x00, 0x00, 0x00, 0x00, 0x00, 0x00, 0x00,
  0x9c, 0x39, 0x33, 0xbf, 0x00, 0x00, 0x00, 0x00, 0x00, 0x00, 0x00, 0x00,
  0xfa, 0x2f, 0x31, 0xbf, 0xd2, 0x3f, 0x4a, 0xbf, 0x00, 0x00, 0x00, 0x00,
  0x00, 0x00, 0x00, 0x00, 0x47, 0xb9, 0x94, 0x3f, 0x24, 0x67, 0x1c, 0xbf,
  0x3e, 0x09, 0x87, 0x3f, 0xea, 0x79, 0x30, 0xbf, 0xa7, 0x7a, 0x4d, 0x3e,
  0xf3, 0xe6, 0xe2, 0xbe, 0x00, 0x00, 0x00, 0x00, 0xfa, 0xb6, 0x1e, 0xbf,
  0xac, 0x9a, 0x37, 0xbf, 0x00, 0x00, 0x00, 0x00, 0x63, 0xbd, 0x92, 0x3f,
  0x00, 0x00, 0x00, 0x00, 0x5d, 0x2a, 0x38, 0xbf, 0x00, 0x00, 0x00, 0x00,
  0x68, 0x95, 0x34, 0xbf, 0x5c, 0x3f, 0x23, 0xbf, 0xfc, 0x8b, 0x3f, 0xbf,
  0x00, 0x00, 0x00, 0x00, 0x00, 0x00, 0x00, 0x00, 0x3e, 0xfb, 0xff, 0xff,
  0x04, 0x00, 0x00, 0x00, 0x00, 0x01, 0x00, 0x00, 0x78, 0x6b, 0xd9, 0xbd,
  0xa4, 0x4d, 0x40, 0xbe, 0x84, 0xb7, 0x40, 0xbe, 0xde, 0x40, 0x27, 0xbe,
  0x3e, 0xc6, 0x22, 0xbe, 0x9f, 0xbe, 0x49, 0xbe, 0xe2, 0x8b, 0x79, 0x3f,
  0x8e, 0xf4, 0xc3, 0xbd, 0x7b, 0x93, 0x64, 0x3f, 0x3a, 0x21, 0x59, 0xbe,
  0x19, 0xd0, 0x00, 0xbe, 0xc4, 0x04, 0xbb, 0xbe, 0xa0, 0x82, 0x40, 0xbc,
  0x88, 0x30, 0xf1, 0xbd, 0x7b, 0x9d, 0x6e, 0xbe, 0x68, 0x8c, 0x9a, 0xbe,
  0x0d, 0x43, 0x90, 0xbe, 0xe2, 0x7a, 0x90, 0xbd, 0xa1, 0x50, 0x7d, 0xbe,
  0x28, 0x44, 0xe1, 0xbb, 0xc8, 0x70, 0xff, 0xbd, 0x17, 0xc8, 0x79, 0x3f,
  0xd1, 0x74, 0x07, 0xbe, 0x58, 0xd4, 0x73, 0xbe, 0x78, 0xa2, 0x83, 0xbd,
  0x90, 0xf7, 0x79, 0xbd, 0x66, 0x3b, 0x14, 0xbe, 0x50, 0x3d, 0x0a, 0xbd,
  0x3d, 0x15, 0xdf, 0x3e, 0xd1, 0x2f, 0x83, 0xbe, 0x1c, 0x92, 0x64, 0xbd,
  0xdc, 0x1f, 0x4b, 0xbe, 0x2a, 0x0c, 0xdc, 0x3e, 0x58, 0xef, 0xd5, 0x3e,
  0xd8, 0x4b, 0x89, 0xbe, 0x24, 0x4f, 0x9f, 0xbe, 0x0a, 0x4b, 0x83, 0xbe,
  0x1c, 0x14, 0xba, 0xbd, 0x89, 0xf2, 0x7e, 0x3f, 0xeb, 0xb0, 0x1d, 0xbe,
  0xf0, 0x75, 0x57, 0xbd, 0x2f, 0x4f, 0x51, 0x3f, 0x42, 0x35, 0x96, 0x3f,
  0x38, 0x74, 0x47, 0xbd, 0x12, 0xdb, 0x74, 0xbe, 0xc3, 0x4b, 0x1b, 0x3e,
  0x3f, 0x77, 0xa3, 0x3e, 0x46, 0xf3, 0x92, 0xbe, 0x60, 0xdb, 0x59, 0x3f,
  0x92, 0xa4, 0x8c, 0x3e, 0x6b, 0x6a, 0x3d, 0x3f, 0x28, 0x53, 0x3b, 0xbd,
  0x25, 0x6b, 0x84, 0x3f, 0x5c, 0x6e, 0x79, 0x3f, 0x0e, 0x4a, 0x11, 0xbe,
  0x9f, 0x2a, 0xa6, 0xbd, 0xe4, 0xb8, 0x07, 0xbe, 0x9b, 0xb3, 0x83, 0x3f,
  0x1f, 0xe2, 0x8e, 0xbe, 0xb9, 0xd5, 0x80, 0x3f, 0x41, 0x57, 0x4b, 0x3f,
  0xf9, 0x46, 0xcb, 0x3e, 0x80, 0xef, 0xc1, 0xbc, 0xd1, 0x14, 0x98, 0xbe,
  0x4a, 0xfc, 0xff, 0xff, 0x04, 0x00, 0x00, 0x00, 0x00, 0x03, 0x00, 0x00,
  0x06, 0xb2, 0x9d, 0xbd, 0xeb, 0xc8, 0xd1, 0xbf, 0xb8, 0xa3, 0x94, 0x3d,
  0x60, 0xe5, 0x7a, 0xbd, 0xe0, 0xb7, 0x52, 0xbe, 0x27, 0x44, 0x56, 0xbf,
  0x13, 0x7b, 0x18, 0x3f, 0x78, 0x44, 0x4c, 0xbf, 0x52, 0x68, 0x5c, 0x3e,
  0x7c, 0x56, 0x0b, 0x3e, 0x68, 0x41, 0x23, 0x3e, 0xd6, 0xd5, 0xa0, 0xbf,
  0xd8, 0xd5, 0x53, 0x3d, 0x40, 0x59, 0x95, 0x3b, 0x10, 0xc3, 0x36, 0x3d,
  0x20, 0x99, 0x7f, 0xbc, 0xda, 0xec, 0x91, 0xbd, 0xc0, 0x93, 0xbd, 0x3c,
  0xe3, 0x7a, 0xb1, 0xbf, 0x4d, 0xd5, 0x09, 0x3d, 0x04, 0x93, 0x0d, 0x3e,
  0xaf, 0x65, 0x57, 0x3f, 0x58, 0xd6, 0x03, 0x3d, 0xde, 0xf2, 0x87, 0x3e,
  0x80, 0xca, 0x65, 0xbc, 0xbe, 0x53, 0x24, 0xbe, 0x62, 0xa8, 0x96, 0x3e,
  0x70, 0xf7, 0x93, 0x3c, 0x3b, 0x97, 0xd6, 0x3f, 0xc0, 0x98, 0x07, 0xbc,
  0x00, 0x6a, 0x6c, 0x3b, 0xb4, 0x85, 0x0a, 0x3e, 0x23, 0xff, 0x84, 0x3f,
  0x61, 0x66, 0xa4, 0x3f, 0xf9, 0xf1, 0x29, 0xbe, 0x29, 0x52, 0xb8, 0xbf,
  0x50, 0xe5, 0x0a, 0xbe, 0xbd, 0x86, 0x6c, 0xbe, 0x96, 0x45, 0x5a, 0x3f,
  0x1c, 0x2e, 0xe8, 0x3d, 0x00, 0xdc, 0x89, 0x3b, 0x6e, 0x57, 0x85, 0x3f,
  0x38, 0x4f, 0x0a, 0x3f, 0xf0, 0xab, 0xc4, 0xbc, 0xd6, 0x81, 0x10, 0xbe,
  0x38, 0xc0, 0x05, 0xbf, 0xcc, 0x58, 0xed, 0x3e, 0x74, 0xc0, 0xd3, 0xbf,
  0x3f, 0x88, 0x55, 0x3f, 0x43, 0xf5, 0xe6, 0xbe, 0x2d, 0x93, 0xb3, 0x3e,
  0x20, 0xfa, 0x14, 0xbd, 0xa0, 0x05, 0xcc, 0x3e, 0x31, 0x00, 0x42, 0x3f,
  0x00, 0x72, 0xcc, 0xba, 0xa4, 0xcc, 0x95, 0xbf, 0x4a, 0x59, 0x81, 0x3e,
  0x77, 0xe6, 0x40, 0x3f, 0x80, 0x73, 0x11, 0x3d, 0x0c, 0xf7, 0x06, 0x3f,
  0x4c, 0xa2, 0x51, 0x3f, 0xcf, 0xfb, 0xc4, 0x3f, 0x8a, 0x61, 0x06, 0x3e,
  0x18, 0xd8, 0xf3, 0x3d, 0x34, 0xfb, 0x71, 0x3e, 0x0f, 0x35, 0x22, 0x3e,
  0x20, 0x45, 0xfa, 0x3d, 0xb6, 0xac, 0x8c, 0x3e, 0xca, 0x69, 0x54, 0xbe,
  0x67, 0x52, 0xa1, 0x3d, 0x6e, 0x9e, 0x76, 0x3e, 0xc9, 0x67, 0xd8, 0xbc,
  0x2d, 0x66, 0x7e, 0x3e, 0x58, 0x6f, 0xa2, 0xbd, 0x54, 0x25, 0x85, 0x3e,
  0x48, 0xbf, 0x9b, 0x37, 0x20, 0xff, 0xfc, 0xbc, 0x5e, 0x12, 0x98, 0x3e,
  0x8e, 0x6f, 0x35, 0xbe, 0x02, 0xfe, 0x31, 0x3e, 0x82, 0xf9, 0x86, 0xbe,
  0x08, 0x9e, 0x13, 0xbd, 0x97, 0x75, 0xcd, 0x3d, 0xac, 0x20, 0xc2, 0xbc,
  0xc0, 0xae, 0x7c, 0xbc, 0x40, 0xc5, 0xb9, 0x3e, 0xb8, 0xac, 0x03, 0x3d,
  0x6a, 0xae, 0x3a, 0x3e, 0xba, 0xde, 0x41, 0x3e, 0x22, 0xd5, 0x2e, 0x3e,
  0x90, 0x77, 0x7d, 0x3e, 0x04, 0xef, 0x94, 0xbd, 0xc2, 0xe5, 0xcf, 0xbf,
  0x12, 0xa0, 0x8b, 0x3e, 0x90, 0x25, 0xe9, 0xbd, 0x18, 0xd1, 0x98, 0x3d,
  0xe2, 0x9b, 0x96, 0xbf, 0x84, 0x68, 0x95, 0xbf, 0x84, 0x08, 0x7f, 0xbd,
  0xb7, 0xa5, 0x53, 0x3c, 0x5e, 0x32, 0xd9, 0xbd, 0x0e, 0x12, 0x29, 0xbe,
  0x27, 0x48, 0x02, 0x3f, 0x58, 0xc5, 0x82, 0x3e, 0xc9, 0x4b, 0x04, 0xbe,
  0xae, 0x92, 0xc9, 0x3d, 0xb9, 0xc7, 0x8d, 0x3e, 0x2c, 0xf2, 0x5f, 0xbd,
  0x9e, 0x44, 0x3b, 0x3e, 0x4a, 0x95, 0x5a, 0x3e, 0x9f, 0x49, 0x21, 0xbf,
  0x6b, 0xd7, 0x40, 0x3e, 0xd8, 0xe2, 0x81, 0x3e, 0x6d, 0x42, 0xb2, 0x3e,
  0x9c, 0x92, 0xe7, 0x3e, 0x28, 0x56, 0x87, 0x3e, 0x7c, 0xa5, 0xbc, 0x3e,
  0x66, 0xba, 0xa3, 0x3e, 0x42, 0xa7, 0x18, 0x3e, 0x65, 0x77, 0xb0, 0x3e,
  0x23, 0xe3, 0x06, 0xbe, 0x78, 0x68, 0xd8, 0x3e, 0x70, 0xc7, 0x90, 0x3d,
  0x57, 0x00, 0x45, 0x3e, 0xd7, 0xfd, 0x00, 0x3e, 0x49, 0x19, 0xc8, 0xbf,
  0xb0, 0x5d, 0x64, 0x3e, 0x03, 0xbd, 0x13, 0xbe, 0xcc, 0x22, 0xdb, 0x3d,
  0x2a, 0xff, 0x83, 0x3f, 0x20, 0x44, 0x6f, 0x3e, 0x06, 0x89, 0x5b, 0xbe,
  0x04, 0x08, 0x85, 0xbd, 0x5d, 0xf8, 0x5e, 0x3f, 0x98, 0x4c, 0xa7, 0xbf,
  0xb8, 0xac, 0x1c, 0x3f, 0xa9, 0x17, 0xa9, 0xbf, 0x62, 0x40, 0xd4, 0xbd,
  0xfd, 0xc3, 0x76, 0xbe, 0x98, 0x19, 0x9d, 0x3f, 0xd0, 0x5b, 0x05, 0xbd,
  0xe0, 0x2d, 0x2a, 0x3e, 0xa0, 0x4c, 0x3d, 0xbe, 0x2a, 0xbd, 0x8d, 0x3e,
  0x8f, 0x60, 0x74, 0xbe, 0x7f, 0x4e, 0x1c, 0xbe, 0x2c, 0x7c, 0x8e, 0x3f,
  0x81, 0x38, 0x2a, 0x3e, 0x42, 0xc1, 0x1a, 0x3e, 0x9b, 0xc4, 0x86, 0xbf,
  0x08, 0x63, 0x6a, 0xbd, 0x10, 0x86, 0xf8, 0xbc, 0x66, 0x77, 0x17, 0x3e,
  0xb0, 0xd0, 0x0c, 0x3e, 0x77, 0xa9, 0x05, 0xbe, 0xcc, 0xe7, 0xc8, 0x3d,
  0x1b, 0x82, 0x2d, 0xbe, 0x2c, 0xcc, 0x64, 0x3e, 0xee, 0x88, 0x54, 0xbe,
  0xc2, 0xbe, 0x69, 0xbe, 0x99, 0x92, 0x1c, 0xbe, 0xfe, 0x53, 0x75, 0xbe,
  0x34, 0x1e, 0x88, 0xbe, 0x6e, 0x7d, 0x94, 0x3f, 0x4b, 0x35, 0x43, 0xbe,
  0xab, 0xe2, 0x54, 0xbe, 0xe3, 0xfe, 0x93, 0xbf, 0xa3, 0x62, 0x86, 0xbe,
  0x38, 0x60, 0x6d, 0xbd, 0xf3, 0x96, 0xdc, 0xbf, 0x61, 0xf6, 0xc5, 0xbf,
  0xca, 0xcb, 0xfd, 0xbd, 0x64, 0x74, 0x65, 0x3e, 0x47, 0x06, 0xbd, 0x3e,
  0xe6, 0x64, 0x25, 0xbe, 0xd5, 0xdb, 0xb9, 0x3f, 0xc7, 0x65, 0x71, 0xbf,
  0xd7, 0x77, 0x91, 0xbe, 0x39, 0x96, 0xb0, 0xbf, 0x78, 0xd0, 0x54, 0x3d,
  0x98, 0x60, 0x94, 0xbf, 0x29, 0x92, 0x96, 0xbf, 0x43, 0xbf, 0x8b, 0xbe,
  0x37, 0xf3, 0x6d, 0x3f, 0x91, 0x72, 0x83, 0xbe, 0xcb, 0x28, 0xb2, 0xbf,
  0xc0, 0x01, 0x4f, 0xbc, 0x97, 0xfc, 0xc6, 0xbf, 0x41, 0x8e, 0xa3, 0xbf,
  0xa0, 0xa6, 0x93, 0xbd, 0x56, 0xdf, 0x95, 0x3e, 0xb8, 0x33, 0xe7, 0xbd,
  0x56, 0xff, 0xff, 0xff, 0x04, 0x00, 0x00, 0x00, 0x0c, 0x00, 0x00, 0x00,
  0x71, 0x42, 0x1b, 0xbf, 0x15, 0xf4, 0xcb, 0x3d, 0xb4, 0xb0, 0x0c, 0x3f,
  0xc8, 0xfb, 0xff, 0xff, 0xcc, 0xfb, 0xff, 0xff, 0x0f, 0x00, 0x00, 0x00,
  0x4d, 0x4c, 0x49, 0x52, 0x20, 0x43, 0x6f, 0x6e, 0x76, 0x65, 0x72, 0x74,
  0x65, 0x64, 0x2e, 0x00, 0x01, 0x00, 0x00, 0x00, 0x14, 0x00, 0x00, 0x00,
  0x00, 0x00, 0x0e, 0x00, 0x18, 0x00, 0x14, 0x00, 0x10, 0x00, 0x0c, 0x00,
  0x08, 0x00, 0x04, 0x00, 0x0e, 0x00, 0x00, 0x00, 0x14, 0x00, 0x00, 0x00,
  0x1c, 0x00, 0x00, 0x00, 0xec, 0x00, 0x00, 0x00, 0xf0, 0x00, 0x00, 0x00,
  0xf4, 0x00, 0x00, 0x00, 0x04, 0x00, 0x00, 0x00, 0x6d, 0x61, 0x69, 0x6e,
  0x00, 0x00, 0x00, 0x00, 0x03, 0x00, 0x00, 0x00, 0x94, 0x00, 0x00, 0x00,
  0x50, 0x00, 0x00, 0x00, 0x14, 0x00, 0x00, 0x00, 0x00, 0x00, 0x0e, 0x00,
  0x1a, 0x00, 0x14, 0x00, 0x10, 0x00, 0x0c, 0x00, 0x0b, 0x00, 0x04, 0x00,
  0x0e, 0x00, 0x00, 0x00, 0x1c, 0x00, 0x00, 0x00, 0x00, 0x00, 0x00, 0x09,
  0x1c, 0x00, 0x00, 0x00, 0x20, 0x00, 0x00, 0x00, 0x01, 0x00, 0x00, 0x00,
  0x00, 0x00, 0x06, 0x00, 0x08, 0x00, 0x04, 0x00, 0x06, 0x00, 0x00, 0x00,
  0x00, 0x00, 0x80, 0x3f, 0x01, 0x00, 0x00, 0x00, 0x07, 0x00, 0x00, 0x00,
  0x01, 0x00, 0x00, 0x00, 0x06, 0x00, 0x00, 0x00, 0xce, 0xff, 0xff, 0xff,
  0x10, 0x00, 0x00, 0x00, 0x00, 0x00, 0x00, 0x08, 0x0c, 0x00, 0x00, 0x00,
  0x10, 0x00, 0x00, 0x00, 0x8c, 0xfc, 0xff, 0xff, 0x01, 0x00, 0x00, 0x00,
  0x06, 0x00, 0x00, 0x00, 0x03, 0x00, 0x00, 0x00, 0x05, 0x00, 0x00, 0x00,
  0x02, 0x00, 0x00, 0x00, 0x01, 0x00, 0x00, 0x00, 0x00, 0x00, 0x0e, 0x00,
  0x16, 0x00, 0x00, 0x00, 0x10, 0x00, 0x0c, 0x00, 0x0b, 0x00, 0x04, 0x00,
  0x0e, 0x00, 0x00, 0x00, 0x18, 0x00, 0x00, 0x00, 0x00, 0x00, 0x00, 0x08,
  0x18, 0x00, 0x00, 0x00, 0x1c, 0x00, 0x00, 0x00, 0x00, 0x00, 0x06, 0x00,
  0x08, 0x00, 0x07, 0x00, 0x06, 0x00, 0x00, 0x00, 0x00, 0x00, 0x00, 0x01,
  0x01, 0x00, 0x00, 0x00, 0x05, 0x00, 0x00, 0x00, 0x03, 0x00, 0x00, 0x00,
  0x00, 0x00, 0x00, 0x00, 0x03, 0x00, 0x00, 0x00, 0x04, 0x00, 0x00, 0x00,
  0x01, 0x00, 0x00, 0x00, 0x07, 0x00, 0x00, 0x00, 0x01, 0x00, 0x00, 0x00,
  0x00, 0x00, 0x00, 0x00, 0x08, 0x00, 0x00, 0x00, 0xd0, 0x02, 0x00, 0x00,
  0x7c, 0x02, 0x00, 0x00, 0x24, 0x02, 0x00, 0x00, 0xd8, 0x01, 0x00, 0x00,
  0x74, 0x01, 0x00, 0x00, 0xe0, 0x00, 0x00, 0x00, 0x60, 0x00, 0x00, 0x00,
  0x04, 0x00, 0x00, 0x00, 0x66, 0xfd, 0xff, 0xff, 0x00, 0x00, 0x00, 0x01,
  0x14, 0x00, 0x00, 0x00, 0x1c, 0x00, 0x00, 0x00, 0x1c, 0x00, 0x00, 0x00,
  0x08, 0x00, 0x00, 0x00, 0x34, 0x00, 0x00, 0x00, 0x02, 0x00, 0x00, 0x00,
  0xff, 0xff, 0xff, 0xff, 0x03, 0x00, 0x00, 0x00, 0x50, 0xfd, 0xff, 0xff,
  0x1b, 0x00, 0x00, 0x00, 0x53, 0x74, 0x61, 0x74, 0x65, 0x66, 0x75, 0x6c,
  0x50, 0x61, 0x72, 0x74, 0x69, 0x74, 0x69, 0x6f, 0x6e, 0x65, 0x64, 0x43,
  0x61, 0x6c, 0x6c, 0x5f, 0x31, 0x3a, 0x30, 0x00, 0x02, 0x00, 0x00, 0x00,
  0x01, 0x00, 0x00, 0x00, 0x03, 0x00, 0x00, 0x00, 0xbe, 0xfd, 0xff, 0xff,
  0x00, 0x00, 0x00, 0x01, 0x14, 0x00, 0x00, 0x00, 0x1c, 0x00, 0x00, 0x00,
  0x1c, 0x00, 0x00, 0x00, 0x07, 0x00, 0x00, 0x00, 0x58, 0x00, 0x00, 0x00,
  0x02, 0x00, 0x00, 0x00, 0xff, 0xff, 0xff, 0xff, 0x03, 0x00, 0x00, 0x00,
  0xa8, 0xfd, 0xff, 0xff, 0x3c, 0x00, 0x00, 0x00, 0x73, 0x65, 0x71, 0x75,
  0x65, 0x6e, 0x74, 0x69, 0x61, 0x6c, 0x5f, 0x31, 0x2f, 0x64, 0x65, 0x6e,
  0x73, 0x65, 0x5f, 0x31, 0x5f, 0x32, 0x2f, 0x4d, 0x61, 0x74, 0x4d, 0x75,
  0x6c, 0x3b, 0x73, 0x65, 0x71, 0x75, 0x65, 0x6e, 0x74, 0x69, 0x61, 0x6c,
  0x5f, 0x31, 0x2f, 0x64, 0x65, 0x6e, 0x73, 0x65, 0x5f, 0x31, 0x5f, 0x32,
  0x2f, 0x42, 0x69, 0x61, 0x73, 0x41, 0x64, 0x64, 0x00, 0x00, 0x00, 0x00,
  0x02, 0x00, 0x00, 0x00, 0x01, 0x00, 0x00, 0x00, 0x03, 0x00, 0x00, 0x00,
  0x3a, 0xfe, 0xff, 0xff, 0x00, 0x00, 0x00, 0x01, 0x14, 0x00, 0x00, 0x00,
  0x1c, 0x00, 0x00, 0x00, 0x1c, 0x00, 0x00, 0x00, 0x06, 0x00, 0x00, 0x00,
  0x6c, 0x00, 0x00, 0x00, 0x02, 0x00, 0x00, 0x00, 0xff, 0xff, 0xff, 0xff,
  0x40, 0x00, 0x00, 0x00, 0x24, 0xfe, 0xff, 0xff, 0x52, 0x00, 0x00, 0x00,
  0x73, 0x65, 0x71, 0x75, 0x65, 0x6e, 0x74, 0x69, 0x61, 0x6c, 0x5f, 0x31,
  0x2f, 0x64, 0x65, 0x6e, 0x73, 0x65, 0x5f, 0x31, 0x2f, 0x4d, 0x61, 0x74,
  0x4d, 0x75, 0x6c, 0x3b, 0x73, 0x65, 0x71, 0x75, 0x65, 0x6e, 0x74, 0x69,
  0x61, 0x6c, 0x5f, 0x31, 0x2f, 0x64, 0x65, 0x6e, 0x73, 0x65, 0x5f, 0x31,
  0x2f, 0x52, 0x65, 0x6c, 0x75, 0x3b, 0x73, 0x65, 0x71, 0x75, 0x65, 0x6e,
  0x74, 0x69, 0x61, 0x6c, 0x5f, 0x31, 0x2f, 0x64, 0x65, 0x6e, 0x73, 0x65,
  0x5f, 0x31, 0x2f, 0x42, 0x69, 0x61, 0x73, 0x41, 0x64, 0x64, 0x00, 0x00,
  0x02, 0x00, 0x00, 0x00, 0x01, 0x00, 0x00, 0x00, 0x40, 0x00, 0x00, 0x00,
  0x1a, 0xff, 0xff, 0xff, 0x00, 0x00, 0x00, 0x01, 0x10, 0x00, 0x00, 0x00,
  0x10, 0x00, 0x00, 0x00, 0x05, 0x00, 0x00, 0x00, 0x44, 0x00, 0x00, 0x00,
  0xa4, 0xfe, 0xff, 0xff, 0x36, 0x00, 0x00, 0x00, 0x73, 0x65, 0x71, 0x75,
  0x65, 0x6e, 0x74, 0x69, 0x61, 0x6c, 0x5f, 0x31, 0x2f, 0x64, 0x65, 0x6e,
  0x73, 0x65, 0x5f, 0x31, 0x2f, 0x52, 0x65, 0x6c, 0x75, 0x3b, 0x73, 0x65,
  0x71, 0x75, 0x65, 0x6e, 0x74, 0x69, 0x61, 0x6c, 0x5f, 0x31, 0x2f, 0x64,
  0x65, 0x6e, 0x73, 0x65, 0x5f, 0x31, 0x2f, 0x42, 0x69, 0x61, 0x73, 0x41,
  0x64, 0x64, 0x00, 0x00, 0x01, 0x00, 0x00, 0x00, 0x40, 0x00, 0x00, 0x00,
  0x7a, 0xff, 0xff, 0xff, 0x00, 0x00, 0x00, 0x01, 0x10, 0x00, 0x00, 0x00,
  0x10, 0x00, 0x00, 0x00, 0x04, 0x00, 0x00, 0x00, 0x28, 0x00, 0x00, 0x00,
  0x04, 0xff, 0xff, 0xff, 0x1b, 0x00, 0x00, 0x00, 0x73, 0x65, 0x71, 0x75,
  0x65, 0x6e, 0x74, 0x69, 0x61, 0x6c, 0x5f, 0x31, 0x2f, 0x64, 0x65, 0x6e,
  0x73, 0x65, 0x5f, 0x31, 0x2f, 0x4d, 0x61, 0x74, 0x4d, 0x75, 0x6c, 0x00,
  0x02, 0x00, 0x00, 0x00, 0x40, 0x00, 0x00, 0x00, 0x01, 0x00, 0x00, 0x00,
  0xc2, 0xff, 0xff, 0xff, 0x00, 0x00, 0x00, 0x01, 0x10, 0x00, 0x00, 0x00,
  0x10, 0x00, 0x00, 0x00, 0x03, 0x00, 0x00, 0x00, 0x1c, 0x00, 0x00, 0x00,
  0x4c, 0xff, 0xff, 0xff, 0x0f, 0x00, 0x00, 0x00, 0x61, 0x72, 0x69, 0x74,
  0x68, 0x2e, 0x63, 0x6f, 0x6e, 0x73, 0x74, 0x61, 0x6e, 0x74, 0x31, 0x00,
  0x02, 0x00, 0x00, 0x00, 0x03, 0x00, 0x00, 0x00, 0x40, 0x00, 0x00, 0x00,
  0x00, 0x00, 0x16, 0x00, 0x18, 0x00, 0x14, 0x00, 0x00, 0x00, 0x10, 0x00,
  0x0c, 0x00, 0x08, 0x00, 0x00, 0x00, 0x00, 0x00, 0x00, 0x00, 0x07, 0x00,
  0x16, 0x00, 0x00, 0x00, 0x00, 0x00, 0x00, 0x01, 0x10, 0x00, 0x00, 0x00,
  0x10, 0x00, 0x00, 0x00, 0x02, 0x00, 0x00, 0x00, 0x1c, 0x00, 0x00, 0x00,
  0xa0, 0xff, 0xff, 0xff, 0x0e, 0x00, 0x00, 0x00, 0x61, 0x72, 0x69, 0x74,
  0x68, 0x2e, 0x63, 0x6f, 0x6e, 0x73, 0x74, 0x61, 0x6e, 0x74, 0x00, 0x00,
  0x01, 0x00, 0x00, 0x00, 0x03, 0x00, 0x00, 0x00, 0x00, 0x00, 0x16, 0x00,
  0x1c, 0x00, 0x18, 0x00, 0x00, 0x00, 0x14, 0x00, 0x10, 0x00, 0x0c, 0x00,
  0x00, 0x00, 0x00, 0x00, 0x08, 0x00, 0x07, 0x00, 0x16, 0x00, 0x00, 0x00,
  0x00, 0x00, 0x00, 0x01, 0x14, 0x00, 0x00, 0x00, 0x20, 0x00, 0x00, 0x00,
  0x20, 0x00, 0x00, 0x00, 0x01, 0x00, 0x00, 0x00, 0x3c, 0x00, 0x00, 0x00,
  0x02, 0x00, 0x00, 0x00, 0xff, 0xff, 0xff, 0xff, 0x01, 0x00, 0x00, 0x00,
  0x04, 0x00, 0x04, 0x00, 0x04, 0x00, 0x00, 0x00, 0x1e, 0x00, 0x00, 0x00,
  0x73, 0x65, 0x72, 0x76, 0x69, 0x6e, 0x67, 0x5f, 0x64, 0x65, 0x66, 0x61,
  0x75, 0x6c, 0x74, 0x5f, 0x6b, 0x65, 0x72, 0x61, 0x73, 0x5f, 0x74, 0x65,
  0x6e, 0x73, 0x6f, 0x72, 0x3a, 0x30, 0x00, 0x00, 0x02, 0x00, 0x00, 0x00,
  0x01, 0x00, 0x00, 0x00, 0x01, 0x00, 0x00, 0x00, 0x02, 0x00, 0x00, 0x00,
  0x20, 0x00, 0x00, 0x00, 0x04, 0x00, 0x00, 0x00, 0xf4, 0xff, 0xff, 0xff,
  0x19, 0x00, 0x00, 0x00, 0x00, 0x00, 0x00, 0x19, 0x0c, 0x00, 0x0c, 0x00,
  0x0b, 0x00, 0x00, 0x00, 0x00, 0x00, 0x04, 0x00, 0x0c, 0x00, 0x00, 0x00,
  0x09, 0x00, 0x00, 0x00, 0x00, 0x00, 0x00, 0x09
};
const unsigned int crack_model_tflite_len = 3008;
#endif
